{
  "version": "1.0",
  "truncation": null,
  "padding": null,
  "added_tokens": [
    {
      "id": 0,
      "content": "[PAD]",
      "single_word": false,
      "lstrip": false,
      "rstrip": false,
      "normalized": false,
      "special": true
    },
    {
      "id": 1,
      "content": "[BOS]",
      "single_word": false,
      "lstrip": false,
      "rstrip": false,
      "normalized": false,
      "special": true
    },
    {
      "id": 2,
      "content": "[EOS]",
      "single_word": false,
      "lstrip": false,
      "rstrip": false,
      "normalized": false,
      "special": true
    },
    {
      "id": 3,
      "content": "[UNK]",
      "single_word": false,
      "lstrip": false,
      "rstrip": false,
      "normalized": false,
      "special": true
    }
  ],
  "normalizer": null,
  "pre_tokenizer": {
    "type": "ByteLevel",
    "add_prefix_space": false,
    "trim_offsets": true,
    "use_regex": true
  },
  "post_processor": {
    "type": "ByteLevel",
    "add_prefix_space": true,
    "trim_offsets": false,
    "use_regex": true
  },
  "decoder": null,
  "model": {
    "type": "BPE",
    "dropout": null,
    "unk_token": "[UNK]",
    "continuing_subword_prefix": null,
    "end_of_word_suffix": null,
    "fuse_unk": false,
    "byte_fallback": false,
    "ignore_merges": false,
    "vocab": {
      "[PAD]": 0,
      "[BOS]": 1,
      "[EOS]": 2,
      "[UNK]": 3,
      "!": 4,
      "#": 5,
      "$": 6,
      "%": 7,
      "&": 8,
      "'": 9,
      "(": 10,
      ")": 11,
      "+": 12,
      ",": 13,
      "-": 14,
      ".": 15,
      "/": 16,
      "0": 17,
      "1": 18,
      "2": 19,
      "3": 20,
      "4": 21,
      "5": 22,
      "6": 23,
      "7": 24,
      "8": 25,
      "9": 26,
      ":": 27,
      ";": 28,
      "?": 29,
      "A": 30,
      "B": 31,
      "C": 32,
      "D": 33,
      "E": 34,
      "F": 35,
      "G": 36,
      "H": 37,
      "I": 38,
      "J": 39,
      "K": 40,
      "L": 41,
      "M": 42,
      "N": 43,
      "O": 44,
      "P": 45,
      "Q": 46,
      "R": 47,
      "S": 48,
      "T": 49,
      "U": 50,
      "V": 51,
      "W": 52,
      "X": 53,
      "Y": 54,
      "Z": 55,
      "[": 56,
      "]": 57,
      "_": 58,
      "a": 59,
      "b": 60,
      "c": 61,
      "d": 62,
      "e": 63,
      "f": 64,
      "g": 65,
      "h": 66,
      "i": 67,
      "j": 68,
      "k": 69,
      "l": 70,
      "m": 71,
      "n": 72,
      "o": 73,
      "p": 74,
      "q": 75,
      "r": 76,
      "s": 77,
      "t": 78,
      "u": 79,
      "v": 80,
      "w": 81,
      "x": 82,
      "y": 83,
      "z": 84,
      "¢": 85,
      "¦": 86,
      "§": 87,
      "¨": 88,
      "©": 89,
      "ª": 90,
      "«": 91,
      "®": 92,
      "Ã": 93,
      "Å": 94,
      "â": 95,
      "ĉ": 96,
      "Ċ": 97,
      "Ġ": 98,
      "Ģ": 99,
      "Ħ": 100,
      "Ĩ": 101,
      "ĩ": 102,
      "ī": 103,
      "ĵ": 104,
      "Ķ": 105,
      "ĺ": 106,
      "Ļ": 107,
      "ľ": 108,
      "Ŀ": 109,
      "ł": 110,
      "Ġt": 111,
      "he": 112,
      "Ġa": 113,
      "ou": 114,
      "Ġs": 115,
      "in": 116,
      "Ġm": 117,
      "Ġw": 118,
      "re": 119,
      "ha": 120,
      "nd": 121,
      "Ġthe": 122,
      "Ġb": 123,
      "is": 124,
      "er": 125,
      "or": 126,
      "âĢ": 127,
      "ll": 128,
      "Ġf": 129,
      "on": 130,
      "it": 131,
      "âĢĻ": 132,
      "es": 133,
      "Ġd": 134,
      "Ġc": 135,
      "en": 136,
      "Ġl": 137,
      "Ġo": 138,
      "Ġn": 139,
      "Ġy": 140,
      "ar": 141,
      "Ġth": 142,
      "Ġh": 143,
      "Ġp": 144,
      "Ġyou": 145,
      "ĠI": 146,
      "Ġto": 147,
      "Ġand": 148,
      "hat": 149,
      "Ġof": 150,
      "Ġhe": 151,
      "ot": 152,
      "an": 153,
      "ve": 154,
      "st": 155,
      "ing": 156,
      "ow": 157,
      "om": 158,
      "Ġg": 159,
      "at": 160,
      "ed": 161,
      "Ġin": 162,
      "Ġbe": 163,
      "se": 164,
      "ce": 165,
      "et": 166,
      "Ġha": 167,
      "Ġmy": 168,
      "ld": 169,
      "le": 170,
      "ay": 171,
      "ut": 172,
      "ir": 173,
      "ith": 174,
      "im": 175,
      "Ġme": 176,
      "ch": 177,
      "gh": 178,
      "Ġnot": 179,
      "Ġis": 180,
      "ill": 181,
      "Ġe": 182,
      "Ġthat": 183,
      "ke": 184,
      "And": 185,
      "oo": 186,
      "our": 187,
      "Ġfor": 188,
      "Ġu": 189,
      "Ġwith": 190,
      "The": 191,
      "Ġwe": 192,
      "ad": 193,
      "ter": 194,
      "as": 195,
      "Ġit": 196,
      "ri": 197,
      "al": 198,
      "ent": 199,
      "her": 200,
      "Ġhis": 201,
      "Ġyour": 202,
      "Ġst": 203,
      "id": 204,
      "ra": 205,
      "Ġthou": 206,
      "ght": 207,
      "ly": 208,
      "Ġhim": 209,
      "Ġre": 210,
      "Ġthis": 211,
      "us": 212,
      "ome": 213,
      "ord": 214,
      "Ġli": 215,
      "Ġhave": 216,
      "Ġon": 217,
      "ur": 218,
      "Ġso": 219,
      "Ġk": 220,
      "ver": 221,
      "ore": 222,
      "Ġas": 223,
      "ro": 224,
      "ould": 225,
      "ain": 226,
      "Ġde": 227,
      "hi": 228,
      "EN": 229,
      "Ġdo": 230,
      "am": 231,
      "ck": 232,
      "Ġwill": 233,
      "ood": 234,
      "Ġsha": 235,
      "ess": 236,
      "ion": 237,
      "Ġse": 238,
      "AN": 239,
      "Ġher": 240,
      "ĠC": 241,
      "est": 242,
      "and": 243,
      "US": 244,
      "ER": 245,
      "nt": 246,
      "ge": 247,
      "Ġlo": 248,
      "ĠS": 249,
      "ea": 250,
      "AR": 251,
      "ĠA": 252,
      "Ġthy": 253,
      "Th": 254,
      "th": 255,
      "Ġno": 256,
      "IN": 257,
      "Ġsu": 258,
      "Ġan": 259,
      "il": 260,
      "Ġall": 261,
      "To": 262,
      "Ġbut": 263,
      "ĠH": 264,
      "ru": 265,
      "ake": 266,
      "ct": 267,
      "if": 268,
      "ĠP": 269,
      "ell": 270,
      "[_": 271,
      "Ġfa": 272,
      "Ġsp": 273,
      "ear": 274,
      "ight": 275,
      "ĠM": 276,
      "Ġkn": 277,
      "ho": 278,
      "Ġshall": 279,
      "Ġthee": 280,
      "ES": 281,
      "Ġv": 282,
      "Ġare": 283,
      "ast": 284,
      "rom": 285,
      "ĠL": 286,
      "That": 287,
      "han": 288,
      "art": 289,
      "ard": 290,
      "ĠB": 291,
      "Ġby": 292,
      "._": 293,
      "Ġsh": 294,
      "ON": 295,
      "ĠW": 296,
      "Ġour": 297,
      "ant": 298,
      "Ġne": 299,
      "ĠG": 300,
      "ine": 301,
      "end": 302,
      "Ġman": 303,
      "En": 304,
      "._]": 305,
      "Ġat": 306,
      "ous": 307,
      "qu": 308,
      "ST": 309,
      "Ġup": 310,
      "Ġam": 311,
      "res": 312,
      "Ġmu": 313,
      "out": 314,
      "one": 315,
      "Ġcom": 316,
      "sel": 317,
      "em": 318,
      "ie": 319,
      "ind": 320,
      "OR": 321,
      "ive": 322,
      "Ġlord": 323,
      "hen": 324,
      "Ġshe": 325,
      "ers": 326,
      "hich": 327,
      "Ġgo": 328,
      "Ġgood": 329,
      "ic": 330,
      "Ġcon": 331,
      "ong": 332,
      "ul": 333,
      "ĠF": 334,
      "âĢĶ": 335,
      "Ġfrom": 336,
      "ry": 337,
      "Ġlove": 338,
      "oth": 339,
      "Ġwhat": 340,
      "ven": 341,
      "row": 342,
      "ble": 343,
      "Ġbl": 344,
      "But": 345,
      "AL": 346,
      "Ġthem": 347,
      "Enter": 348,
      "Ġwas": 349,
      "OL": 350,
      "Ġsw": 351,
      "Ġknow": 352,
      "Ġwould": 353,
      "Ġmore": 354,
      "el": 355,
      "here": 356,
      "pp": 357,
      "au": 358,
      "Ġtheir": 359,
      "ol": 360,
      "ath": 361,
      "fe": 362,
      "ep": 363,
      "Ġpr": 364,
      "all": 365,
      "Ġcan": 366,
      "ĠâĢĻ": 367,
      "ost": 368,
      "ure": 369,
      "ĠD": 370,
      "ĠO": 371,
      "Ġnow": 372,
      "ĠR": 373,
      "Ġthey": 374,
      "Ġwor": 375,
      "ĠĠ": 376,
      "Ġhat": 377,
      "Ġor": 378,
      "Ġthere": 379,
      "self": 380,
      "Ġar": 381,
      "ate": 382,
      "Ġthan": 383,
      "What": 384,
      "ort": 385,
      "Ġus": 386,
      "He": 387,
      "Ġsir": 388,
      "As": 389,
      "ĠT": 390,
      "ink": 391,
      "ame": 392,
      "Ġif": 393,
      "IO": 394,
      "For": 395,
      "Ġsay": 396,
      "LE": 397,
      "other": 398,
      "are": 399,
      "um": 400,
      "You": 401,
      "TH": 402,
      "Ġlet": 403,
      "Ġhere": 404,
      "ue": 405,
      "fore": 406,
      "ves": 407,
      "reat": 408,
      "ak": 409,
      "ĠThe": 410,
      "Ġpl": 411,
      "ook": 412,
      "ound": 413,
      "hy": 414,
      "Ex": 415,
      "ish": 416,
      "Ġlike": 417,
      "EL": 418,
      "Ġthen": 419,
      "ING": 420,
      "ather": 421,
      "Ġwell": 422,
      "Ġhath": 423,
      "ig": 424,
      "od": 425,
      "Ġone": 426,
      "Ġsee": 427,
      "un": 428,
      "CH": 429,
      "ĠK": 430,
      "Ġj": 431,
      "Ġun": 432,
      "Ġdid": 433,
      "Ġshould": 434,
      "RO": 435,
      "Ġmay": 436,
      "Ġr": 437,
      "Ġcome": 438,
      "ist": 439,
      "ance": 440,
      "Ġen": 441,
      "Ġbr": 442,
      "gain": 443,
      "My": 444,
      "IA": 445,
      "Ġmake": 446,
      "Ġmad": 447,
      "Ġho": 448,
      "ice": 449,
      "Ġqu": 450,
      "Ġout": 451,
      "Ġupon": 452,
      "Ġmust": 453,
      "Ġwhich": 454,
      "Ġsa": 455,
      "very": 456,
      "eak": 457,
      "pe": 458,
      "ity": 459,
      "IR": 460,
      "Ġwere": 461,
      "KING": 462,
      "ime": 463,
      "red": 464,
      "Ġhad": 465,
      "Ġtoo": 466,
      "LO": 467,
      "IUS": 468,
      "Ġpro": 469,
      "ies": 470,
      "pt": 471,
      "Ġtru": 472,
      "ence": 473,
      "Ġsuch": 474,
      "ff": 475,
      "Ġey": 476,
      "orn": 477,
      "Ġheart": 478,
      "unt": 479,
      "Ġwhen": 480,
      "Ġpo": 481,
      "Thou": 482,
      "Ġhand": 483,
      "Ġhon": 484,
      "If": 485,
      "ond": 486,
      "ĠE": 487,
      "Ġdis": 488,
      "This": 489,
      "ther": 490,
      "Ġex": 491,
      "Ġal": 492,
      "With": 493,
      "ĠJ": 494,
      "ick": 495,
      "ide": 496,
      "ass": 497,
      "Ġagain": 498,
      "ave": 499,
      "ness": 500,
      "Ġyet": 501,
      "ĠN": 502,
      "âĢľ": 503,
      "ise": 504,
      "ĠKing": 505,
      "ire": 506,
      "wn": 507,
      "In": 508,
      "age": 509,
      "Ġwho": 510,
      "Ġspeak": 511,
      "Ġoff": 512,
      "urn": 513,
      "eet": 514,
      "Ġsome": 515,
      "ings": 516,
      "Ġro": 517,
      "ack": 518,
      "ose": 519,
      "io": 520,
      "ANT": 521,
      "Ġthink": 522,
      "Ġfri": 523,
      "Ġthese": 524,
      "ady": 525,
      "oy": 526,
      "own": 527,
      "Ġmine": 528,
      "ARD": 529,
      "Ġfl": 530,
      "ng": 531,
      "AM": 532,
      "ber": 533,
      "Ġab": 534,
      "Ġfo": 535,
      "Ġfather": 536,
      "de": 537,
      "Ġhea": 538,
      "Ġhow": 539,
      "IC": 540,
      "Ġgreat": 541,
      "ation": 542,
      "ag": 543,
      "Ġcha": 544,
      "eunt": 545,
      "ress": 546,
      "ful": 547,
      "Exeunt": 548,
      "Ġtime": 549,
      "ince": 550,
      "Ġgive": 551,
      "Ġtw": 552,
      "ENE": 553,
      "So": 554,
      "ci": 555,
      "ust": 556,
      "ESS": 557,
      "entle": 558,
      "os": 559,
      "IL": 560,
      "way": 561,
      "Ġgra": 562,
      "Of": 563,
      "Ġfriend": 564,
      "Why": 565,
      "Ġtake": 566,
      "Ġwhere": 567,
      "Be": 568,
      "âĢĿ": 569,
      "Ġmuch": 570,
      "Ġri": 571,
      "How": 572,
      "Ġday": 573,
      "aster": 574,
      "We": 575,
      "ace": 576,
      "Ġmost": 577,
      "Ġmar": 578,
      "ree": 579,
      "Ġpart": 580,
      "Ġdes": 581,
      "Ġtell": 582,
      "Ġnever": 583,
      "AT": 584,
      "li": 585,
      "Ġbet": 586,
      "ull": 587,
      "No": 588,
      "Ġle": 589,
      "Ġbre": 590,
      "Ġhear": 591,
      "Which": 592,
      "ough": 593,
      "Ġlea": 594,
      "Ġlook": 595,
      "Ġmen": 596,
      "ap": 597,
      "ither": 598,
      "to": 599,
      "ite": 600,
      "Ġart": 601,
      "Who": 602,
      "ign": 603,
      "Ġear": 604,
      "Ġblood": 605,
      "Ġother": 606,
      "UC": 607,
      "ment": 608,
      "ount": 609,
      "Ġdoth": 610,
      "Ġlife": 611,
      "Ġdeath": 612,
      "SC": 613,
      "Ġword": 614,
      "not": 615,
      "LA": 616,
      "ene": 617,
      "oul": 618,
      "Ġfair": 619,
      "ET": 620,
      "ces": 621,
      "Ġhonour": 622,
      "ĠV": 623,
      "Ġwr": 624,
      "erv": 625,
      "igh": 626,
      "old": 627,
      "che": 628,
      "ase": 629,
      "Ġfear": 630,
      "Ġany": 631,
      "Ġson": 632,
      "ans": 633,
      "Ġgentle": 634,
      "ius": 635,
      "ward": 636,
      "Ġtr": 637,
      "AC": 638,
      "ove": 639,
      "It": 640,
      "ĠHe": 641,
      "ool": 642,
      "Ġsc": 643,
      "Ġple": 644,
      "Ġown": 645,
      "itt": 646,
      "Ġsweet": 647,
      "Ġcl": 648,
      "FF": 649,
      "Ġper": 650,
      "SCENE": 651,
      "nder": 652,
      "Ġheaven": 653,
      "Ġad": 654,
      "Ġcomm": 655,
      "Ġnight": 656,
      "ouse": 657,
      "Ġwar": 658,
      "per": 659,
      "Ġra": 660,
      "SE": 661,
      "ĠĠĠĠ": 662,
      "ft": 663,
      "tis": 664,
      "land": 665,
      "Is": 666,
      "ee": 667,
      "Ġcall": 668,
      "Ġmade": 669,
      "les": 670,
      "When": 671,
      "nce": 672,
      "hing": 673,
      "Ġtrue": 674,
      "ĠII": 675,
      "Ġeyes": 676,
      "Where": 677,
      "By": 678,
      "Ġwh": 679,
      "AND": 680,
      "llow": 681,
      "rown": 682,
      "man": 683,
      "Sc": 684,
      "augh": 685,
      "ia": 686,
      "Ġvery": 687,
      "IRST": 688,
      "Ġke": 689,
      "FIRST": 690,
      "uke": 691,
      "ction": 692,
      "Ġhast": 693,
      "CA": 694,
      "Ġcannot": 695,
      "PH": 696,
      "orrow": 697,
      "UR": 698,
      "Ġapp": 699,
      "Ġworld": 700,
      "There": 701,
      "ĠâĢľ": 702,
      "Ġpre": 703,
      "ĠLord": 704,
      "Or": 705,
      "Ġstr": 706,
      "IT": 707,
      "able": 708,
      "ock": 709,
      "Scene": 710,
      "Ġaf": 711,
      "ĠWhat": 712,
      "Ġpray": 713,
      "Let": 714,
      "Your": 715,
      "QU": 716,
      "ss": 717,
      "Ġbeen": 718,
      "cc": 719,
      "Ġaway": 720,
      "Tis": 721,
      "Ġbear": 722,
      "we": 723,
      "Ġla": 724,
      "ud": 725,
      "Ġim": 726,
      "Ġking": 727,
      "Ġdone": 728,
      "Ġcour": 729,
      "DU": 730,
      "ving": 731,
      "Ġway": 732,
      "Ġru": 733,
      "Ġnor": 734,
      "Ġcomp": 735,
      "ty": 736,
      "ks": 737,
      "iss": 738,
      "Ġwit": 739,
      "Ġstand": 740,
      "ps": 741,
      "Ġtwo": 742,
      "EM": 743,
      "Ġhead": 744,
      "Ġdown": 745,
      "ower": 746,
      "Ġarm": 747,
      "Ġname": 748,
      "Ġmight": 749,
      "Come": 750,
      "RI": 751,
      "oman": 752,
      "Ġever": 753,
      "ENT": 754,
      "less": 755,
      "Ġbrother": 756,
      "Ġbefore": 757,
      "ger": 758,
      "Ġcont": 759,
      ".]": 760,
      "ife": 761,
      "Ġpres": 762,
      "ian": 763,
      "aint": 764,
      "ears": 765,
      "Ġold": 766,
      "Ġthought": 767,
      "Ġsl": 768,
      "Ġnoble": 769,
      "ĠGod": 770,
      "aughter": 771,
      "Ay": 772,
      "ach": 773,
      "Ġleave": 774,
      "sw": 775,
      "ĠDuke": 776,
      "Ġbeg": 777,
      "Now": 778,
      "bl": 779,
      "ED": 780,
      "ORD": 781,
      "CE": 782,
      "irst": 783,
      "ark": 784,
      "Ġlong": 785,
      "Ġthus": 786,
      "Ġlady": 787,
      "Ġnew": 788,
      "Ġcould": 789,
      "ason": 790,
      "rie": 791,
      "Ġdead": 792,
      "Ġhar": 793,
      "ause": 794,
      "Ġrem": 795,
      "ors": 796,
      "be": 797,
      "me": 798,
      "Ġfool": 799,
      "ĠBut": 800,
      "ple": 801,
      "CON": 802,
      "Ġcomes": 803,
      "Then": 804,
      "IS": 805,
      "Ġhouse": 806,
      "Ġpoor": 807,
      "Ġshow": 808,
      "Ġsoul": 809,
      "ds": 810,
      "Ġpur": 811,
      "Ġend": 812,
      "Ġlive": 813,
      "Ġgl": 814,
      "ne": 815,
      "IM": 816,
      "Ġbeing": 817,
      "Ġfind": 818,
      "akes": 819,
      "_.]": 820,
      "for": 821,
      "atter": 822,
      "Ġbetter": 823,
      "ious": 824,
      "eth": 825,
      "Ġstill": 826,
      "STA": 827,
      "the": 828,
      "Ġkeep": 829,
      "KE": 830,
      "Ġbest": 831,
      "ert": 832,
      "ought": 833,
      "tend": 834,
      "Ġma": 835,
      "har": 836,
      "Ġboth": 837,
      "come": 838,
      "Ġrep": 839,
      "eace": 840,
      "uck": 841,
      "cl": 842,
      "Ġevery": 843,
      "ied": 844,
      "Ġinto": 845,
      "Ġmany": 846,
      "Ġmer": 847,
      "nto": 848,
      "cy": 849,
      "hall": 850,
      "ĠPr": 851,
      "Ġnothing": 852,
      "ier": 853,
      "Ġsm": 854,
      "ĠCa": 855,
      "BER": 856,
      "ew": 857,
      "Here": 858,
      "She": 859,
      "une": 860,
      "Ġbra": 861,
      "istress": 862,
      "St": 863,
      "His": 864,
      "They": 865,
      "well": 866,
      "men": 867,
      "ittle": 868,
      "Ġput": 869,
      "atch": 870,
      "IAN": 871,
      "ren": 872,
      "Ġco": 873,
      "Ġset": 874,
      "Ġmaster": 875,
      "mp": 876,
      "ect": 877,
      "ield": 878,
      "hip": 879,
      "Ġfell": 880,
      "Ġtong": 881,
      "RU": 882,
      "Ġserv": 883,
      "Ġpri": 884,
      "Ġmyself": 885,
      "ĠOF": 886,
      "ĠEn": 887,
      "ins": 888,
      "Ġlie": 889,
      "ons": 890,
      "Ġfriends": 891,
      "CHARD": 892,
      "Ġeye": 893,
      "Ġdaughter": 894,
      "ac": 895,
      "HAM": 896,
      "rance": 897,
      "rant": 898,
      "Ġwife": 899,
      "Ġhour": 900,
      "Than": 901,
      "ret": 902,
      "Ġlittle": 903,
      "Ġyoung": 904,
      "SS": 905,
      "its": 906,
      "arry": 907,
      "LET": 908,
      "COND": 909,
      "Ġthose": 910,
      "INE": 911,
      "ĠRome": 912,
      "ĠIf": 913,
      "Ġhold": 914,
      "Ġfollow": 915,
      "RY": 916,
      "vil": 917,
      "int": 918,
      "Ġfirst": 919,
      "ens": 920,
      "EEN": 921,
      "ĠAn": 922,
      "Well": 923,
      "SECOND": 924,
      "ĠAnt": 925,
      "Ġnat": 926,
      "Ġdear": 927,
      "Ġdie": 928,
      "lf": 929,
      "Ġchi": 930,
      "ile": 931,
      "Ġplace": 932,
      "ĠAnd": 933,
      "QUEEN": 934,
      "esar": 935,
      "Exit": 936,
      "Ġsle": 937,
      "uty": 938,
      "alk": 939,
      "Not": 940,
      "Ġfe": 941,
      "eds": 942,
      "Ġrest": 943,
      "UL": 944,
      "lt": 945,
      "STAFF": 946,
      "BE": 947,
      "Do": 948,
      "Yet": 949,
      "Ġconf": 950,
      "uth": 951,
      "Ġunder": 952,
      "ĠEng": 953,
      "Ġtra": 954,
      "Ġfall": 955,
      "Ġface": 956,
      "ab": 957,
      "Ġthine": 958,
      "Ġgu": 959,
      "Ġhimself": 960,
      "ilt": 961,
      "ALSTAFF": 962,
      "ison": 963,
      "FALSTAFF": 964,
      "ail": 965,
      "Ġgone": 966,
      "WN": 967,
      "Ġlords": 968,
      "Ġmind": 969,
      ".âĢĶ": 970,
      "oud": 971,
      "ont": 972,
      "Ġcons": 973,
      "Ġel": 974,
      "erve": 975,
      "Good": 976,
      "MAN": 977,
      "ĠSir": 978,
      "iness": 979,
      "Thy": 980,
      "Ġworth": 981,
      "DUKE": 982,
      "Ġtri": 983,
      "Ġagainst": 984,
      "oun": 985,
      "Ġfull": 986,
      "Ġpass": 987,
      "Ġkind": 988,
      "Nay": 989,
      "Ġch": 990,
      "TER": 991,
      "get": 992,
      "Ġboy": 993,
      "Ġche": 994,
      "Ġgi": 995,
      "Ġnone": 996,
      "ows": 997,
      "AG": 998,
      "Sir": 999,
      "RIN": 1000,
      "rief": 1001,
      "irt": 1002,
      "Ġfort": 1003,
      "bt": 1004,
      "Ġtill": 1005,
      "ĠYou": 1006,
      "ICK": 1007,
      "Ġpresent": 1008,
      "ID": 1009,
      "hed": 1010,
      "Ġstay": 1011,
      "Ġplay": 1012,
      "ROS": 1013,
      "LUC": 1014,
      "Ġsword": 1015,
      "Ġtongue": 1016,
      "Ġmother": 1017,
      "Will": 1018,
      "Ġseem": 1019,
      "esty": 1020,
      "Ġchar": 1021,
      "BA": 1022,
      "OTH": 1023
    },
    "merges": [
      [
        "Ġ",
        "t"
      ],
      [
        "h",
        "e"
      ],
      [
        "Ġ",
        "a"
      ],
      [
        "o",
        "u"
      ],
      [
        "Ġ",
        "s"
      ],
      [
        "i",
        "n"
      ],
      [
        "Ġ",
        "m"
      ],
      [
        "Ġ",
        "w"
      ],
      [
        "r",
        "e"
      ],
      [
        "h",
        "a"
      ],
      [
        "n",
        "d"
      ],
      [
        "Ġt",
        "he"
      ],
      [
        "Ġ",
        "b"
      ],
      [
        "i",
        "s"
      ],
      [
        "e",
        "r"
      ],
      [
        "o",
        "r"
      ],
      [
        "â",
        "Ģ"
      ],
      [
        "l",
        "l"
      ],
      [
        "Ġ",
        "f"
      ],
      [
        "o",
        "n"
      ],
      [
        "i",
        "t"
      ],
      [
        "âĢ",
        "Ļ"
      ],
      [
        "e",
        "s"
      ],
      [
        "Ġ",
        "d"
      ],
      [
        "Ġ",
        "c"
      ],
      [
        "e",
        "n"
      ],
      [
        "Ġ",
        "l"
      ],
      [
        "Ġ",
        "o"
      ],
      [
        "Ġ",
        "n"
      ],
      [
        "Ġ",
        "y"
      ],
      [
        "a",
        "r"
      ],
      [
        "Ġt",
        "h"
      ],
      [
        "Ġ",
        "h"
      ],
      [
        "Ġ",
        "p"
      ],
      [
        "Ġy",
        "ou"
      ],
      [
        "Ġ",
        "I"
      ],
      [
        "Ġt",
        "o"
      ],
      [
        "Ġa",
        "nd"
      ],
      [
        "ha",
        "t"
      ],
      [
        "Ġo",
        "f"
      ],
      [
        "Ġ",
        "he"
      ],
      [
        "o",
        "t"
      ],
      [
        "a",
        "n"
      ],
      [
        "v",
        "e"
      ],
      [
        "s",
        "t"
      ],
      [
        "in",
        "g"
      ],
      [
        "o",
        "w"
      ],
      [
        "o",
        "m"
      ],
      [
        "Ġ",
        "g"
      ],
      [
        "a",
        "t"
      ],
      [
        "e",
        "d"
      ],
      [
        "Ġ",
        "in"
      ],
      [
        "Ġb",
        "e"
      ],
      [
        "s",
        "e"
      ],
      [
        "c",
        "e"
      ],
      [
        "e",
        "t"
      ],
      [
        "Ġ",
        "ha"
      ],
      [
        "Ġm",
        "y"
      ],
      [
        "l",
        "d"
      ],
      [
        "l",
        "e"
      ],
      [
        "a",
        "y"
      ],
      [
        "u",
        "t"
      ],
      [
        "i",
        "r"
      ],
      [
        "it",
        "h"
      ],
      [
        "i",
        "m"
      ],
      [
        "Ġm",
        "e"
      ],
      [
        "c",
        "h"
      ],
      [
        "g",
        "h"
      ],
      [
        "Ġn",
        "ot"
      ],
      [
        "Ġ",
        "is"
      ],
      [
        "i",
        "ll"
      ],
      [
        "Ġ",
        "e"
      ],
      [
        "Ġt",
        "hat"
      ],
      [
        "k",
        "e"
      ],
      [
        "A",
        "nd"
      ],
      [
        "o",
        "o"
      ],
      [
        "ou",
        "r"
      ],
      [
        "Ġf",
        "or"
      ],
      [
        "Ġ",
        "u"
      ],
      [
        "Ġw",
        "ith"
      ],
      [
        "T",
        "he"
      ],
      [
        "Ġw",
        "e"
      ],
      [
        "a",
        "d"
      ],
      [
        "t",
        "er"
      ],
      [
        "a",
        "s"
      ],
      [
        "Ġ",
        "it"
      ],
      [
        "r",
        "i"
      ],
      [
        "a",
        "l"
      ],
      [
        "en",
        "t"
      ],
      [
        "he",
        "r"
      ],
      [
        "Ġh",
        "is"
      ],
      [
        "Ġyou",
        "r"
      ],
      [
        "Ġs",
        "t"
      ],
      [
        "i",
        "d"
      ],
      [
        "r",
        "a"
      ],
      [
        "Ġth",
        "ou"
      ],
      [
        "gh",
        "t"
      ],
      [
        "l",
        "y"
      ],
      [
        "Ġh",
        "im"
      ],
      [
        "Ġ",
        "re"
      ],
      [
        "Ġth",
        "is"
      ],
      [
        "u",
        "s"
      ],
      [
        "om",
        "e"
      ],
      [
        "or",
        "d"
      ],
      [
        "Ġl",
        "i"
      ],
      [
        "Ġha",
        "ve"
      ],
      [
        "Ġ",
        "on"
      ],
      [
        "u",
        "r"
      ],
      [
        "Ġs",
        "o"
      ],
      [
        "Ġ",
        "k"
      ],
      [
        "v",
        "er"
      ],
      [
        "o",
        "re"
      ],
      [
        "Ġa",
        "s"
      ],
      [
        "r",
        "o"
      ],
      [
        "ou",
        "ld"
      ],
      [
        "a",
        "in"
      ],
      [
        "Ġd",
        "e"
      ],
      [
        "h",
        "i"
      ],
      [
        "E",
        "N"
      ],
      [
        "Ġd",
        "o"
      ],
      [
        "a",
        "m"
      ],
      [
        "c",
        "k"
      ],
      [
        "Ġw",
        "ill"
      ],
      [
        "oo",
        "d"
      ],
      [
        "Ġs",
        "ha"
      ],
      [
        "es",
        "s"
      ],
      [
        "i",
        "on"
      ],
      [
        "Ġs",
        "e"
      ],
      [
        "A",
        "N"
      ],
      [
        "Ġhe",
        "r"
      ],
      [
        "Ġ",
        "C"
      ],
      [
        "es",
        "t"
      ],
      [
        "a",
        "nd"
      ],
      [
        "U",
        "S"
      ],
      [
        "E",
        "R"
      ],
      [
        "n",
        "t"
      ],
      [
        "g",
        "e"
      ],
      [
        "Ġl",
        "o"
      ],
      [
        "Ġ",
        "S"
      ],
      [
        "e",
        "a"
      ],
      [
        "A",
        "R"
      ],
      [
        "Ġ",
        "A"
      ],
      [
        "Ġth",
        "y"
      ],
      [
        "T",
        "h"
      ],
      [
        "t",
        "h"
      ],
      [
        "Ġn",
        "o"
      ],
      [
        "I",
        "N"
      ],
      [
        "Ġs",
        "u"
      ],
      [
        "Ġa",
        "n"
      ],
      [
        "i",
        "l"
      ],
      [
        "Ġa",
        "ll"
      ],
      [
        "T",
        "o"
      ],
      [
        "Ġb",
        "ut"
      ],
      [
        "Ġ",
        "H"
      ],
      [
        "r",
        "u"
      ],
      [
        "a",
        "ke"
      ],
      [
        "c",
        "t"
      ],
      [
        "i",
        "f"
      ],
      [
        "Ġ",
        "P"
      ],
      [
        "e",
        "ll"
      ],
      [
        "[",
        "_"
      ],
      [
        "Ġf",
        "a"
      ],
      [
        "Ġs",
        "p"
      ],
      [
        "e",
        "ar"
      ],
      [
        "i",
        "ght"
      ],
      [
        "Ġ",
        "M"
      ],
      [
        "Ġk",
        "n"
      ],
      [
        "h",
        "o"
      ],
      [
        "Ġsha",
        "ll"
      ],
      [
        "Ġthe",
        "e"
      ],
      [
        "E",
        "S"
      ],
      [
        "Ġ",
        "v"
      ],
      [
        "Ġa",
        "re"
      ],
      [
        "a",
        "st"
      ],
      [
        "r",
        "om"
      ],
      [
        "Ġ",
        "L"
      ],
      [
        "T",
        "hat"
      ],
      [
        "ha",
        "n"
      ],
      [
        "ar",
        "t"
      ],
      [
        "ar",
        "d"
      ],
      [
        "Ġ",
        "B"
      ],
      [
        "Ġb",
        "y"
      ],
      [
        ".",
        "_"
      ],
      [
        "Ġs",
        "h"
      ],
      [
        "O",
        "N"
      ],
      [
        "Ġ",
        "W"
      ],
      [
        "Ġ",
        "our"
      ],
      [
        "an",
        "t"
      ],
      [
        "Ġn",
        "e"
      ],
      [
        "Ġ",
        "G"
      ],
      [
        "in",
        "e"
      ],
      [
        "e",
        "nd"
      ],
      [
        "Ġm",
        "an"
      ],
      [
        "E",
        "n"
      ],
      [
        "._",
        "]"
      ],
      [
        "Ġa",
        "t"
      ],
      [
        "ou",
        "s"
      ],
      [
        "q",
        "u"
      ],
      [
        "S",
        "T"
      ],
      [
        "Ġu",
        "p"
      ],
      [
        "Ġa",
        "m"
      ],
      [
        "re",
        "s"
      ],
      [
        "Ġm",
        "u"
      ],
      [
        "ou",
        "t"
      ],
      [
        "on",
        "e"
      ],
      [
        "Ġc",
        "om"
      ],
      [
        "se",
        "l"
      ],
      [
        "e",
        "m"
      ],
      [
        "i",
        "e"
      ],
      [
        "in",
        "d"
      ],
      [
        "O",
        "R"
      ],
      [
        "i",
        "ve"
      ],
      [
        "Ġl",
        "ord"
      ],
      [
        "he",
        "n"
      ],
      [
        "Ġs",
        "he"
      ],
      [
        "er",
        "s"
      ],
      [
        "hi",
        "ch"
      ],
      [
        "Ġg",
        "o"
      ],
      [
        "Ġg",
        "ood"
      ],
      [
        "i",
        "c"
      ],
      [
        "Ġc",
        "on"
      ],
      [
        "on",
        "g"
      ],
      [
        "u",
        "l"
      ],
      [
        "Ġ",
        "F"
      ],
      [
        "âĢ",
        "Ķ"
      ],
      [
        "Ġf",
        "rom"
      ],
      [
        "r",
        "y"
      ],
      [
        "Ġlo",
        "ve"
      ],
      [
        "ot",
        "h"
      ],
      [
        "Ġw",
        "hat"
      ],
      [
        "v",
        "en"
      ],
      [
        "r",
        "ow"
      ],
      [
        "b",
        "le"
      ],
      [
        "Ġb",
        "l"
      ],
      [
        "B",
        "ut"
      ],
      [
        "A",
        "L"
      ],
      [
        "Ġthe",
        "m"
      ],
      [
        "En",
        "ter"
      ],
      [
        "Ġw",
        "as"
      ],
      [
        "O",
        "L"
      ],
      [
        "Ġs",
        "w"
      ],
      [
        "Ġkn",
        "ow"
      ],
      [
        "Ġw",
        "ould"
      ],
      [
        "Ġm",
        "ore"
      ],
      [
        "e",
        "l"
      ],
      [
        "he",
        "re"
      ],
      [
        "p",
        "p"
      ],
      [
        "a",
        "u"
      ],
      [
        "Ġthe",
        "ir"
      ],
      [
        "o",
        "l"
      ],
      [
        "at",
        "h"
      ],
      [
        "f",
        "e"
      ],
      [
        "e",
        "p"
      ],
      [
        "Ġp",
        "r"
      ],
      [
        "a",
        "ll"
      ],
      [
        "Ġc",
        "an"
      ],
      [
        "Ġ",
        "âĢĻ"
      ],
      [
        "o",
        "st"
      ],
      [
        "u",
        "re"
      ],
      [
        "Ġ",
        "D"
      ],
      [
        "Ġ",
        "O"
      ],
      [
        "Ġn",
        "ow"
      ],
      [
        "Ġ",
        "R"
      ],
      [
        "Ġthe",
        "y"
      ],
      [
        "Ġw",
        "or"
      ],
      [
        "Ġ",
        "Ġ"
      ],
      [
        "Ġ",
        "hat"
      ],
      [
        "Ġ",
        "or"
      ],
      [
        "Ġthe",
        "re"
      ],
      [
        "sel",
        "f"
      ],
      [
        "Ġa",
        "r"
      ],
      [
        "at",
        "e"
      ],
      [
        "Ġt",
        "han"
      ],
      [
        "W",
        "hat"
      ],
      [
        "or",
        "t"
      ],
      [
        "Ġu",
        "s"
      ],
      [
        "H",
        "e"
      ],
      [
        "Ġs",
        "ir"
      ],
      [
        "A",
        "s"
      ],
      [
        "Ġ",
        "T"
      ],
      [
        "in",
        "k"
      ],
      [
        "am",
        "e"
      ],
      [
        "Ġ",
        "if"
      ],
      [
        "I",
        "O"
      ],
      [
        "F",
        "or"
      ],
      [
        "Ġs",
        "ay"
      ],
      [
        "L",
        "E"
      ],
      [
        "ot",
        "her"
      ],
      [
        "a",
        "re"
      ],
      [
        "u",
        "m"
      ],
      [
        "Y",
        "ou"
      ],
      [
        "T",
        "H"
      ],
      [
        "Ġl",
        "et"
      ],
      [
        "Ġhe",
        "re"
      ],
      [
        "u",
        "e"
      ],
      [
        "f",
        "ore"
      ],
      [
        "v",
        "es"
      ],
      [
        "re",
        "at"
      ],
      [
        "a",
        "k"
      ],
      [
        "Ġ",
        "The"
      ],
      [
        "Ġp",
        "l"
      ],
      [
        "oo",
        "k"
      ],
      [
        "ou",
        "nd"
      ],
      [
        "h",
        "y"
      ],
      [
        "E",
        "x"
      ],
      [
        "is",
        "h"
      ],
      [
        "Ġli",
        "ke"
      ],
      [
        "E",
        "L"
      ],
      [
        "Ġthe",
        "n"
      ],
      [
        "IN",
        "G"
      ],
      [
        "at",
        "her"
      ],
      [
        "Ġwe",
        "ll"
      ],
      [
        "Ġhat",
        "h"
      ],
      [
        "i",
        "g"
      ],
      [
        "o",
        "d"
      ],
      [
        "Ġon",
        "e"
      ],
      [
        "Ġse",
        "e"
      ],
      [
        "u",
        "n"
      ],
      [
        "C",
        "H"
      ],
      [
        "Ġ",
        "K"
      ],
      [
        "Ġ",
        "j"
      ],
      [
        "Ġu",
        "n"
      ],
      [
        "Ġd",
        "id"
      ],
      [
        "Ġsh",
        "ould"
      ],
      [
        "R",
        "O"
      ],
      [
        "Ġm",
        "ay"
      ],
      [
        "Ġ",
        "r"
      ],
      [
        "Ġc",
        "ome"
      ],
      [
        "is",
        "t"
      ],
      [
        "an",
        "ce"
      ],
      [
        "Ġ",
        "en"
      ],
      [
        "Ġb",
        "r"
      ],
      [
        "g",
        "ain"
      ],
      [
        "M",
        "y"
      ],
      [
        "I",
        "A"
      ],
      [
        "Ġm",
        "ake"
      ],
      [
        "Ġm",
        "ad"
      ],
      [
        "Ġh",
        "o"
      ],
      [
        "i",
        "ce"
      ],
      [
        "Ġ",
        "qu"
      ],
      [
        "Ġ",
        "out"
      ],
      [
        "Ġup",
        "on"
      ],
      [
        "Ġmu",
        "st"
      ],
      [
        "Ġw",
        "hich"
      ],
      [
        "Ġs",
        "a"
      ],
      [
        "ver",
        "y"
      ],
      [
        "ea",
        "k"
      ],
      [
        "p",
        "e"
      ],
      [
        "it",
        "y"
      ],
      [
        "I",
        "R"
      ],
      [
        "Ġwe",
        "re"
      ],
      [
        "K",
        "ING"
      ],
      [
        "im",
        "e"
      ],
      [
        "re",
        "d"
      ],
      [
        "Ġha",
        "d"
      ],
      [
        "Ġto",
        "o"
      ],
      [
        "L",
        "O"
      ],
      [
        "I",
        "US"
      ],
      [
        "Ġp",
        "ro"
      ],
      [
        "i",
        "es"
      ],
      [
        "p",
        "t"
      ],
      [
        "Ġt",
        "ru"
      ],
      [
        "en",
        "ce"
      ],
      [
        "Ġsu",
        "ch"
      ],
      [
        "f",
        "f"
      ],
      [
        "Ġe",
        "y"
      ],
      [
        "or",
        "n"
      ],
      [
        "Ġhe",
        "art"
      ],
      [
        "u",
        "nt"
      ],
      [
        "Ġw",
        "hen"
      ],
      [
        "Ġp",
        "o"
      ],
      [
        "Th",
        "ou"
      ],
      [
        "Ġha",
        "nd"
      ],
      [
        "Ġh",
        "on"
      ],
      [
        "I",
        "f"
      ],
      [
        "o",
        "nd"
      ],
      [
        "Ġ",
        "E"
      ],
      [
        "Ġd",
        "is"
      ],
      [
        "Th",
        "is"
      ],
      [
        "t",
        "her"
      ],
      [
        "Ġe",
        "x"
      ],
      [
        "Ġa",
        "l"
      ],
      [
        "W",
        "ith"
      ],
      [
        "Ġ",
        "J"
      ],
      [
        "i",
        "ck"
      ],
      [
        "id",
        "e"
      ],
      [
        "as",
        "s"
      ],
      [
        "Ġa",
        "gain"
      ],
      [
        "a",
        "ve"
      ],
      [
        "n",
        "ess"
      ],
      [
        "Ġy",
        "et"
      ],
      [
        "Ġ",
        "N"
      ],
      [
        "âĢ",
        "ľ"
      ],
      [
        "is",
        "e"
      ],
      [
        "ĠK",
        "ing"
      ],
      [
        "i",
        "re"
      ],
      [
        "w",
        "n"
      ],
      [
        "I",
        "n"
      ],
      [
        "a",
        "ge"
      ],
      [
        "Ġw",
        "ho"
      ],
      [
        "Ġsp",
        "eak"
      ],
      [
        "Ġof",
        "f"
      ],
      [
        "ur",
        "n"
      ],
      [
        "e",
        "et"
      ],
      [
        "Ġs",
        "ome"
      ],
      [
        "ing",
        "s"
      ],
      [
        "Ġ",
        "ro"
      ],
      [
        "a",
        "ck"
      ],
      [
        "o",
        "se"
      ],
      [
        "i",
        "o"
      ],
      [
        "AN",
        "T"
      ],
      [
        "Ġth",
        "ink"
      ],
      [
        "Ġf",
        "ri"
      ],
      [
        "Ġthe",
        "se"
      ],
      [
        "ad",
        "y"
      ],
      [
        "o",
        "y"
      ],
      [
        "ow",
        "n"
      ],
      [
        "Ġm",
        "ine"
      ],
      [
        "AR",
        "D"
      ],
      [
        "Ġf",
        "l"
      ],
      [
        "n",
        "g"
      ],
      [
        "A",
        "M"
      ],
      [
        "b",
        "er"
      ],
      [
        "Ġa",
        "b"
      ],
      [
        "Ġf",
        "o"
      ],
      [
        "Ġf",
        "ather"
      ],
      [
        "d",
        "e"
      ],
      [
        "Ġhe",
        "a"
      ],
      [
        "Ġh",
        "ow"
      ],
      [
        "I",
        "C"
      ],
      [
        "Ġg",
        "reat"
      ],
      [
        "at",
        "ion"
      ],
      [
        "a",
        "g"
      ],
      [
        "Ġc",
        "ha"
      ],
      [
        "e",
        "unt"
      ],
      [
        "res",
        "s"
      ],
      [
        "f",
        "ul"
      ],
      [
        "Ex",
        "eunt"
      ],
      [
        "Ġt",
        "ime"
      ],
      [
        "in",
        "ce"
      ],
      [
        "Ġg",
        "ive"
      ],
      [
        "Ġt",
        "w"
      ],
      [
        "EN",
        "E"
      ],
      [
        "S",
        "o"
      ],
      [
        "c",
        "i"
      ],
      [
        "u",
        "st"
      ],
      [
        "ES",
        "S"
      ],
      [
        "ent",
        "le"
      ],
      [
        "o",
        "s"
      ],
      [
        "I",
        "L"
      ],
      [
        "w",
        "ay"
      ],
      [
        "Ġg",
        "ra"
      ],
      [
        "O",
        "f"
      ],
      [
        "Ġfri",
        "end"
      ],
      [
        "W",
        "hy"
      ],
      [
        "Ġt",
        "ake"
      ],
      [
        "Ġw",
        "here"
      ],
      [
        "B",
        "e"
      ],
      [
        "âĢ",
        "Ŀ"
      ],
      [
        "Ġmu",
        "ch"
      ],
      [
        "Ġ",
        "ri"
      ],
      [
        "H",
        "ow"
      ],
      [
        "Ġd",
        "ay"
      ],
      [
        "ast",
        "er"
      ],
      [
        "W",
        "e"
      ],
      [
        "a",
        "ce"
      ],
      [
        "Ġm",
        "ost"
      ],
      [
        "Ġm",
        "ar"
      ],
      [
        "re",
        "e"
      ],
      [
        "Ġp",
        "art"
      ],
      [
        "Ġd",
        "es"
      ],
      [
        "Ġt",
        "ell"
      ],
      [
        "Ġne",
        "ver"
      ],
      [
        "A",
        "T"
      ],
      [
        "l",
        "i"
      ],
      [
        "Ġbe",
        "t"
      ],
      [
        "u",
        "ll"
      ],
      [
        "N",
        "o"
      ],
      [
        "Ġl",
        "e"
      ],
      [
        "Ġb",
        "re"
      ],
      [
        "Ġhe",
        "ar"
      ],
      [
        "W",
        "hich"
      ],
      [
        "ou",
        "gh"
      ],
      [
        "Ġl",
        "ea"
      ],
      [
        "Ġl",
        "ook"
      ],
      [
        "Ġm",
        "en"
      ],
      [
        "a",
        "p"
      ],
      [
        "it",
        "her"
      ],
      [
        "t",
        "o"
      ],
      [
        "it",
        "e"
      ],
      [
        "Ġar",
        "t"
      ],
      [
        "W",
        "ho"
      ],
      [
        "ig",
        "n"
      ],
      [
        "Ġe",
        "ar"
      ],
      [
        "Ġbl",
        "ood"
      ],
      [
        "Ġo",
        "ther"
      ],
      [
        "U",
        "C"
      ],
      [
        "m",
        "ent"
      ],
      [
        "ou",
        "nt"
      ],
      [
        "Ġd",
        "oth"
      ],
      [
        "Ġli",
        "fe"
      ],
      [
        "Ġde",
        "ath"
      ],
      [
        "S",
        "C"
      ],
      [
        "Ġw",
        "ord"
      ],
      [
        "n",
        "ot"
      ],
      [
        "L",
        "A"
      ],
      [
        "en",
        "e"
      ],
      [
        "ou",
        "l"
      ],
      [
        "Ġfa",
        "ir"
      ],
      [
        "E",
        "T"
      ],
      [
        "c",
        "es"
      ],
      [
        "Ġhon",
        "our"
      ],
      [
        "Ġ",
        "V"
      ],
      [
        "Ġw",
        "r"
      ],
      [
        "er",
        "v"
      ],
      [
        "i",
        "gh"
      ],
      [
        "o",
        "ld"
      ],
      [
        "c",
        "he"
      ],
      [
        "a",
        "se"
      ],
      [
        "Ġf",
        "ear"
      ],
      [
        "Ġan",
        "y"
      ],
      [
        "Ġs",
        "on"
      ],
      [
        "an",
        "s"
      ],
      [
        "Ġg",
        "entle"
      ],
      [
        "i",
        "us"
      ],
      [
        "w",
        "ard"
      ],
      [
        "Ġt",
        "r"
      ],
      [
        "A",
        "C"
      ],
      [
        "o",
        "ve"
      ],
      [
        "I",
        "t"
      ],
      [
        "ĠH",
        "e"
      ],
      [
        "oo",
        "l"
      ],
      [
        "Ġs",
        "c"
      ],
      [
        "Ġp",
        "le"
      ],
      [
        "Ġo",
        "wn"
      ],
      [
        "it",
        "t"
      ],
      [
        "Ġsw",
        "eet"
      ],
      [
        "Ġc",
        "l"
      ],
      [
        "F",
        "F"
      ],
      [
        "Ġp",
        "er"
      ],
      [
        "SC",
        "ENE"
      ],
      [
        "nd",
        "er"
      ],
      [
        "Ġhea",
        "ven"
      ],
      [
        "Ġa",
        "d"
      ],
      [
        "Ġcom",
        "m"
      ],
      [
        "Ġn",
        "ight"
      ],
      [
        "ou",
        "se"
      ],
      [
        "Ġw",
        "ar"
      ],
      [
        "p",
        "er"
      ],
      [
        "Ġ",
        "ra"
      ],
      [
        "S",
        "E"
      ],
      [
        "ĠĠ",
        "ĠĠ"
      ],
      [
        "f",
        "t"
      ],
      [
        "t",
        "is"
      ],
      [
        "l",
        "and"
      ],
      [
        "I",
        "s"
      ],
      [
        "e",
        "e"
      ],
      [
        "Ġc",
        "all"
      ],
      [
        "Ġmad",
        "e"
      ],
      [
        "l",
        "es"
      ],
      [
        "W",
        "hen"
      ],
      [
        "n",
        "ce"
      ],
      [
        "h",
        "ing"
      ],
      [
        "Ġtru",
        "e"
      ],
      [
        "ĠI",
        "I"
      ],
      [
        "Ġey",
        "es"
      ],
      [
        "W",
        "here"
      ],
      [
        "B",
        "y"
      ],
      [
        "Ġw",
        "h"
      ],
      [
        "AN",
        "D"
      ],
      [
        "ll",
        "ow"
      ],
      [
        "row",
        "n"
      ],
      [
        "m",
        "an"
      ],
      [
        "S",
        "c"
      ],
      [
        "au",
        "gh"
      ],
      [
        "i",
        "a"
      ],
      [
        "Ġ",
        "very"
      ],
      [
        "IR",
        "ST"
      ],
      [
        "Ġ",
        "ke"
      ],
      [
        "F",
        "IRST"
      ],
      [
        "u",
        "ke"
      ],
      [
        "ct",
        "ion"
      ],
      [
        "Ġha",
        "st"
      ],
      [
        "C",
        "A"
      ],
      [
        "Ġcan",
        "not"
      ],
      [
        "P",
        "H"
      ],
      [
        "or",
        "row"
      ],
      [
        "U",
        "R"
      ],
      [
        "Ġa",
        "pp"
      ],
      [
        "Ġwor",
        "ld"
      ],
      [
        "The",
        "re"
      ],
      [
        "Ġ",
        "âĢľ"
      ],
      [
        "Ġp",
        "re"
      ],
      [
        "ĠL",
        "ord"
      ],
      [
        "O",
        "r"
      ],
      [
        "Ġst",
        "r"
      ],
      [
        "I",
        "T"
      ],
      [
        "a",
        "ble"
      ],
      [
        "o",
        "ck"
      ],
      [
        "Sc",
        "ene"
      ],
      [
        "Ġa",
        "f"
      ],
      [
        "ĠW",
        "hat"
      ],
      [
        "Ġpr",
        "ay"
      ],
      [
        "L",
        "et"
      ],
      [
        "Y",
        "our"
      ],
      [
        "Q",
        "U"
      ],
      [
        "s",
        "s"
      ],
      [
        "Ġbe",
        "en"
      ],
      [
        "c",
        "c"
      ],
      [
        "Ġa",
        "way"
      ],
      [
        "T",
        "is"
      ],
      [
        "Ġbe",
        "ar"
      ],
      [
        "w",
        "e"
      ],
      [
        "Ġl",
        "a"
      ],
      [
        "u",
        "d"
      ],
      [
        "Ġ",
        "im"
      ],
      [
        "Ġk",
        "ing"
      ],
      [
        "Ġd",
        "one"
      ],
      [
        "Ġc",
        "our"
      ],
      [
        "D",
        "U"
      ],
      [
        "v",
        "ing"
      ],
      [
        "Ġw",
        "ay"
      ],
      [
        "Ġ",
        "ru"
      ],
      [
        "Ġn",
        "or"
      ],
      [
        "Ġcom",
        "p"
      ],
      [
        "t",
        "y"
      ],
      [
        "k",
        "s"
      ],
      [
        "is",
        "s"
      ],
      [
        "Ġw",
        "it"
      ],
      [
        "Ġst",
        "and"
      ],
      [
        "p",
        "s"
      ],
      [
        "Ġtw",
        "o"
      ],
      [
        "E",
        "M"
      ],
      [
        "Ġhe",
        "ad"
      ],
      [
        "Ġd",
        "own"
      ],
      [
        "ow",
        "er"
      ],
      [
        "Ġar",
        "m"
      ],
      [
        "Ġn",
        "ame"
      ],
      [
        "Ġm",
        "ight"
      ],
      [
        "C",
        "ome"
      ],
      [
        "R",
        "I"
      ],
      [
        "om",
        "an"
      ],
      [
        "Ġe",
        "ver"
      ],
      [
        "EN",
        "T"
      ],
      [
        "l",
        "ess"
      ],
      [
        "Ġbr",
        "other"
      ],
      [
        "Ġbe",
        "fore"
      ],
      [
        "g",
        "er"
      ],
      [
        "Ġcon",
        "t"
      ],
      [
        ".",
        "]"
      ],
      [
        "if",
        "e"
      ],
      [
        "Ġp",
        "res"
      ],
      [
        "i",
        "an"
      ],
      [
        "ain",
        "t"
      ],
      [
        "ear",
        "s"
      ],
      [
        "Ġo",
        "ld"
      ],
      [
        "Ġthou",
        "ght"
      ],
      [
        "Ġs",
        "l"
      ],
      [
        "Ġno",
        "ble"
      ],
      [
        "ĠG",
        "od"
      ],
      [
        "augh",
        "ter"
      ],
      [
        "A",
        "y"
      ],
      [
        "a",
        "ch"
      ],
      [
        "Ġlea",
        "ve"
      ],
      [
        "s",
        "w"
      ],
      [
        "ĠD",
        "uke"
      ],
      [
        "Ġbe",
        "g"
      ],
      [
        "N",
        "ow"
      ],
      [
        "b",
        "l"
      ],
      [
        "E",
        "D"
      ],
      [
        "OR",
        "D"
      ],
      [
        "C",
        "E"
      ],
      [
        "ir",
        "st"
      ],
      [
        "ar",
        "k"
      ],
      [
        "Ġl",
        "ong"
      ],
      [
        "Ġth",
        "us"
      ],
      [
        "Ġl",
        "ady"
      ],
      [
        "Ġne",
        "w"
      ],
      [
        "Ġc",
        "ould"
      ],
      [
        "as",
        "on"
      ],
      [
        "ri",
        "e"
      ],
      [
        "Ġde",
        "ad"
      ],
      [
        "Ġha",
        "r"
      ],
      [
        "au",
        "se"
      ],
      [
        "Ġre",
        "m"
      ],
      [
        "or",
        "s"
      ],
      [
        "b",
        "e"
      ],
      [
        "m",
        "e"
      ],
      [
        "Ġf",
        "ool"
      ],
      [
        "ĠB",
        "ut"
      ],
      [
        "p",
        "le"
      ],
      [
        "C",
        "ON"
      ],
      [
        "Ġcom",
        "es"
      ],
      [
        "The",
        "n"
      ],
      [
        "I",
        "S"
      ],
      [
        "Ġh",
        "ouse"
      ],
      [
        "Ġpo",
        "or"
      ],
      [
        "Ġsh",
        "ow"
      ],
      [
        "Ġs",
        "oul"
      ],
      [
        "d",
        "s"
      ],
      [
        "Ġp",
        "ur"
      ],
      [
        "Ġe",
        "nd"
      ],
      [
        "Ġli",
        "ve"
      ],
      [
        "Ġg",
        "l"
      ],
      [
        "n",
        "e"
      ],
      [
        "I",
        "M"
      ],
      [
        "Ġbe",
        "ing"
      ],
      [
        "Ġf",
        "ind"
      ],
      [
        "ak",
        "es"
      ],
      [
        "_",
        ".]"
      ],
      [
        "f",
        "or"
      ],
      [
        "at",
        "ter"
      ],
      [
        "Ġbet",
        "ter"
      ],
      [
        "i",
        "ous"
      ],
      [
        "et",
        "h"
      ],
      [
        "Ġst",
        "ill"
      ],
      [
        "ST",
        "A"
      ],
      [
        "t",
        "he"
      ],
      [
        "Ġke",
        "ep"
      ],
      [
        "K",
        "E"
      ],
      [
        "Ġb",
        "est"
      ],
      [
        "er",
        "t"
      ],
      [
        "ou",
        "ght"
      ],
      [
        "t",
        "end"
      ],
      [
        "Ġm",
        "a"
      ],
      [
        "ha",
        "r"
      ],
      [
        "Ġb",
        "oth"
      ],
      [
        "c",
        "ome"
      ],
      [
        "Ġre",
        "p"
      ],
      [
        "ea",
        "ce"
      ],
      [
        "u",
        "ck"
      ],
      [
        "c",
        "l"
      ],
      [
        "Ġe",
        "very"
      ],
      [
        "i",
        "ed"
      ],
      [
        "Ġin",
        "to"
      ],
      [
        "Ġman",
        "y"
      ],
      [
        "Ġm",
        "er"
      ],
      [
        "nt",
        "o"
      ],
      [
        "c",
        "y"
      ],
      [
        "ha",
        "ll"
      ],
      [
        "ĠP",
        "r"
      ],
      [
        "Ġnot",
        "hing"
      ],
      [
        "i",
        "er"
      ],
      [
        "Ġs",
        "m"
      ],
      [
        "ĠC",
        "a"
      ],
      [
        "B",
        "ER"
      ],
      [
        "e",
        "w"
      ],
      [
        "He",
        "re"
      ],
      [
        "S",
        "he"
      ],
      [
        "un",
        "e"
      ],
      [
        "Ġb",
        "ra"
      ],
      [
        "ist",
        "ress"
      ],
      [
        "S",
        "t"
      ],
      [
        "H",
        "is"
      ],
      [
        "The",
        "y"
      ],
      [
        "w",
        "ell"
      ],
      [
        "m",
        "en"
      ],
      [
        "itt",
        "le"
      ],
      [
        "Ġp",
        "ut"
      ],
      [
        "at",
        "ch"
      ],
      [
        "I",
        "AN"
      ],
      [
        "re",
        "n"
      ],
      [
        "Ġc",
        "o"
      ],
      [
        "Ġs",
        "et"
      ],
      [
        "Ġm",
        "aster"
      ],
      [
        "m",
        "p"
      ],
      [
        "e",
        "ct"
      ],
      [
        "ie",
        "ld"
      ],
      [
        "hi",
        "p"
      ],
      [
        "Ġf",
        "ell"
      ],
      [
        "Ġt",
        "ong"
      ],
      [
        "R",
        "U"
      ],
      [
        "Ġs",
        "erv"
      ],
      [
        "Ġp",
        "ri"
      ],
      [
        "Ġmy",
        "self"
      ],
      [
        "ĠO",
        "F"
      ],
      [
        "Ġ",
        "En"
      ],
      [
        "in",
        "s"
      ],
      [
        "Ġli",
        "e"
      ],
      [
        "on",
        "s"
      ],
      [
        "Ġfriend",
        "s"
      ],
      [
        "CH",
        "ARD"
      ],
      [
        "Ġey",
        "e"
      ],
      [
        "Ġd",
        "aughter"
      ],
      [
        "a",
        "c"
      ],
      [
        "H",
        "AM"
      ],
      [
        "r",
        "ance"
      ],
      [
        "r",
        "ant"
      ],
      [
        "Ġw",
        "ife"
      ],
      [
        "Ġh",
        "our"
      ],
      [
        "T",
        "han"
      ],
      [
        "re",
        "t"
      ],
      [
        "Ġl",
        "ittle"
      ],
      [
        "Ġyou",
        "ng"
      ],
      [
        "S",
        "S"
      ],
      [
        "it",
        "s"
      ],
      [
        "ar",
        "ry"
      ],
      [
        "LE",
        "T"
      ],
      [
        "CON",
        "D"
      ],
      [
        "Ġth",
        "ose"
      ],
      [
        "IN",
        "E"
      ],
      [
        "ĠR",
        "ome"
      ],
      [
        "ĠI",
        "f"
      ],
      [
        "Ġho",
        "ld"
      ],
      [
        "Ġfo",
        "llow"
      ],
      [
        "R",
        "Y"
      ],
      [
        "v",
        "il"
      ],
      [
        "in",
        "t"
      ],
      [
        "Ġf",
        "irst"
      ],
      [
        "en",
        "s"
      ],
      [
        "E",
        "EN"
      ],
      [
        "ĠA",
        "n"
      ],
      [
        "W",
        "ell"
      ],
      [
        "SE",
        "COND"
      ],
      [
        "ĠA",
        "nt"
      ],
      [
        "Ġn",
        "at"
      ],
      [
        "Ġde",
        "ar"
      ],
      [
        "Ġd",
        "ie"
      ],
      [
        "l",
        "f"
      ],
      [
        "Ġc",
        "hi"
      ],
      [
        "i",
        "le"
      ],
      [
        "Ġpl",
        "ace"
      ],
      [
        "Ġ",
        "And"
      ],
      [
        "QU",
        "EEN"
      ],
      [
        "es",
        "ar"
      ],
      [
        "Ex",
        "it"
      ],
      [
        "Ġs",
        "le"
      ],
      [
        "ut",
        "y"
      ],
      [
        "al",
        "k"
      ],
      [
        "N",
        "ot"
      ],
      [
        "Ġf",
        "e"
      ],
      [
        "ed",
        "s"
      ],
      [
        "Ġre",
        "st"
      ],
      [
        "U",
        "L"
      ],
      [
        "l",
        "t"
      ],
      [
        "STA",
        "FF"
      ],
      [
        "B",
        "E"
      ],
      [
        "D",
        "o"
      ],
      [
        "Y",
        "et"
      ],
      [
        "Ġcon",
        "f"
      ],
      [
        "ut",
        "h"
      ],
      [
        "Ġu",
        "nder"
      ],
      [
        "ĠEn",
        "g"
      ],
      [
        "Ġt",
        "ra"
      ],
      [
        "Ġfa",
        "ll"
      ],
      [
        "Ġfa",
        "ce"
      ],
      [
        "a",
        "b"
      ],
      [
        "Ġth",
        "ine"
      ],
      [
        "Ġg",
        "u"
      ],
      [
        "Ġhim",
        "self"
      ],
      [
        "il",
        "t"
      ],
      [
        "AL",
        "STAFF"
      ],
      [
        "is",
        "on"
      ],
      [
        "F",
        "ALSTAFF"
      ],
      [
        "a",
        "il"
      ],
      [
        "Ġg",
        "one"
      ],
      [
        "W",
        "N"
      ],
      [
        "Ġlord",
        "s"
      ],
      [
        "Ġm",
        "ind"
      ],
      [
        ".",
        "âĢĶ"
      ],
      [
        "ou",
        "d"
      ],
      [
        "on",
        "t"
      ],
      [
        "Ġcon",
        "s"
      ],
      [
        "Ġe",
        "l"
      ],
      [
        "er",
        "ve"
      ],
      [
        "G",
        "ood"
      ],
      [
        "M",
        "AN"
      ],
      [
        "ĠS",
        "ir"
      ],
      [
        "in",
        "ess"
      ],
      [
        "Th",
        "y"
      ],
      [
        "Ġwor",
        "th"
      ],
      [
        "DU",
        "KE"
      ],
      [
        "Ġt",
        "ri"
      ],
      [
        "Ġagain",
        "st"
      ],
      [
        "ou",
        "n"
      ],
      [
        "Ġf",
        "ull"
      ],
      [
        "Ġp",
        "ass"
      ],
      [
        "Ġk",
        "ind"
      ],
      [
        "N",
        "ay"
      ],
      [
        "Ġc",
        "h"
      ],
      [
        "T",
        "ER"
      ],
      [
        "g",
        "et"
      ],
      [
        "Ġb",
        "oy"
      ],
      [
        "Ġc",
        "he"
      ],
      [
        "Ġg",
        "i"
      ],
      [
        "Ġn",
        "one"
      ],
      [
        "ow",
        "s"
      ],
      [
        "A",
        "G"
      ],
      [
        "S",
        "ir"
      ],
      [
        "R",
        "IN"
      ],
      [
        "rie",
        "f"
      ],
      [
        "ir",
        "t"
      ],
      [
        "Ġfor",
        "t"
      ],
      [
        "b",
        "t"
      ],
      [
        "Ġt",
        "ill"
      ],
      [
        "Ġ",
        "You"
      ],
      [
        "IC",
        "K"
      ],
      [
        "Ġpres",
        "ent"
      ],
      [
        "I",
        "D"
      ],
      [
        "he",
        "d"
      ],
      [
        "Ġst",
        "ay"
      ],
      [
        "Ġpl",
        "ay"
      ],
      [
        "RO",
        "S"
      ],
      [
        "L",
        "UC"
      ],
      [
        "Ġsw",
        "ord"
      ],
      [
        "Ġtong",
        "ue"
      ],
      [
        "Ġm",
        "other"
      ],
      [
        "W",
        "ill"
      ],
      [
        "Ġse",
        "em"
      ],
      [
        "est",
        "y"
      ],
      [
        "Ġcha",
        "r"
      ],
      [
        "B",
        "A"
      ],
      [
        "O",
        "TH"
      ]
    ]
  }
}